#include "sine_model_data.h"

ai_handle ai_sine_model_data_weights_get(void)
{

  AI_ALIGNED(4)
  static const ai_u8 s_sine_model_weights[ 1284 ] = {
    0x07, 0xf3, 0x0e, 0xbf, 0x61, 0xf0, 0x22, 0x3e, 0xf7, 0x75,
    0x0b, 0xbf, 0xc1, 0x29, 0xcd, 0x3e, 0x34, 0xa9, 0xd4, 0x3e,
    0xca, 0x2f, 0x0d, 0xbe, 0xf2, 0xa4, 0xd0, 0xbe, 0x76, 0xda,
    0xfc, 0xbe, 0x42, 0x1a, 0xb6, 0xbe, 0x26, 0x7a, 0x04, 0xbf,
    0x6b, 0xd5, 0xb7, 0x3e, 0xdd, 0x2b, 0xbf, 0xbe, 0x13, 0xa6,
    0xb0, 0x3e, 0xc4, 0xe9, 0x20, 0x3f, 0x0e, 0xb9, 0x8e, 0x3e,
    0xa1, 0xed, 0xf4, 0xbe, 0x00, 0x00, 0x00, 0x00, 0x95, 0x1b,
    0x0d, 0xbf, 0x00, 0x00, 0x00, 0x00, 0x6d, 0x73, 0x31, 0xbf,
    0x62, 0xa3, 0x03, 0x3f, 0x00, 0x00, 0x00, 0x00, 0x00, 0x00,
    0x00, 0x00, 0x00, 0x00, 0x00, 0x00, 0x00, 0x00, 0x00, 0x00,
    0x00, 0x00, 0x00, 0x00, 0xf2, 0x21, 0x26, 0xbf, 0x00, 0x00,
    0x00, 0x00, 0x57, 0x7b, 0x30, 0xbf, 0xb0, 0x56, 0xa3, 0x3e,
    0xd5, 0x35, 0xba, 0xbe, 0x00, 0x00, 0x00, 0x00, 0x43, 0x81,
    0xb4, 0x3e, 0x89, 0x79, 0x74, 0x3d, 0x8f, 0x7e, 0xc7, 0x3e,
    0xc8, 0x91, 0x53, 0xbf, 0x8c, 0xa0, 0x89, 0x3e, 0x3e, 0x33,
    0x79, 0x3e, 0xc6, 0xaa, 0x5a, 0xbe, 0xe9, 0x50, 0xc3, 0xbe,
    0xec, 0xd2, 0x58, 0xbe, 0xe0, 0x33, 0x2b, 0x3c, 0xf3, 0xc8,
    0x31, 0x3b, 0x36, 0xe3, 0x7a, 0x3e, 0x4c, 0x35, 0x0e, 0xbf,
    0x90, 0x33, 0x5b, 0xbf, 0x17, 0x2a, 0xd9, 0xbe, 0x53, 0x41,
    0xa5, 0x3e, 0x78, 0xca, 0xc9, 0xbe, 0x99, 0x42, 0xb0, 0xbd,
    0xe6, 0xee, 0x22, 0x3e, 0x1f, 0xbb, 0xb5, 0xbe, 0x28, 0x41,
    0x18, 0x3e, 0x74, 0x6e, 0x98, 0xbe, 0x90, 0x3c, 0x94, 0xbc,
    0x7c, 0x02, 0x9a, 0xbe, 0x9a, 0x0e, 0x45, 0x3e, 0x23, 0xe2,
    0xa3, 0x3e, 0xd2, 0xb7, 0x22, 0xbe, 0x7e, 0x2c, 0x16, 0x3e,
    0x40, 0x7e, 0x36, 0xbe, 0x58, 0x91, 0xe5, 0x3e, 0x7f, 0x82,
    0xa8, 0xbd, 0x64, 0x91, 0x1c, 0xbe, 0x1d, 0x76, 0xaa, 0xbe,
    0x2c, 0xda, 0x87, 0x3c, 0xe2, 0x98, 0x15, 0x3e, 0xdd, 0xf7,
    0x83, 0x3e, 0x65, 0x39, 0x66, 0xbe, 0x0e, 0xd6, 0xd9, 0xbe,
    0xde, 0x5c, 0x8c, 0xbe, 0xb4, 0xc1, 0x8b, 0xbe, 0x27, 0xcc,
    0xa0, 0x3e, 0xe2, 0x2f, 0x25, 0x3e, 0xe6, 0xfa, 0x0d, 0x3e,
    0x7c, 0xa5, 0xd7, 0xbd, 0xbe, 0x57, 0xa4, 0xbe, 0xa4, 0xa0,
    0x2a, 0xbe, 0x95, 0xb6, 0x84, 0xbe, 0xd0, 0x4b, 0x9d, 0x3c,
    0x88, 0xb5, 0x1b, 0x3d, 0x54, 0x85, 0xe1, 0xbe, 0xbc, 0xf7,
    0xf8, 0xbd, 0xec, 0x7f, 0x00, 0xbf, 0xb0, 0x1d, 0x74, 0x3e,
    0x01, 0xd0, 0xa5, 0xbe, 0x58, 0xc1, 0xb3, 0xbe, 0x32, 0xbf,
    0x64, 0x3e, 0x66, 0xca, 0x9c, 0xbe, 0xfd, 0xf0, 0x9c, 0xbe,
    0xcb, 0xab, 0x3e, 0xbe, 0xf4, 0x59, 0xe7, 0x3d, 0xaa, 0xda,
    0xa4, 0xbe, 0x2d, 0x63, 0x28, 0x3c, 0xbf, 0x91, 0x16, 0xbf,
    0x8f, 0xbd, 0x53, 0xbe, 0xc4, 0x52, 0xfb, 0xbd, 0x3b, 0xe8,
    0x45, 0xbd, 0xa2, 0x37, 0x04, 0x3e, 0x89, 0x66, 0x5e, 0xbe,
    0xe8, 0x04, 0xf2, 0x3e, 0x08, 0x11, 0x52, 0xbd, 0x53, 0x3a,
    0xb8, 0x3e, 0x0d, 0xd1, 0xab, 0x3e, 0x3e, 0xa4, 0x57, 0x3e,
    0xbe, 0xfd, 0x93, 0xbe, 0x55, 0x2b, 0x8c, 0xbe, 0x3e, 0x0d,
    0x35, 0x3e, 0x78, 0x15, 0x57, 0xbe, 0xcf, 0x8e, 0x37, 0xbe,
    0x66, 0xb0, 0x92, 0x3e, 0xdc, 0x8f, 0xc7, 0x3d, 0xfc, 0x74,
    0xbf, 0x3d, 0xb2, 0xea, 0x3c, 0x3e, 0x07, 0x2d, 0xac, 0x3e,
    0x5c, 0x0e, 0x82, 0xbe, 0x9d, 0x46, 0xc6, 0xbe, 0x42, 0x2f,
    0xb1, 0xbe, 0x85, 0x2a, 0xc5, 0x3e, 0x40, 0xaf, 0xab, 0x3c,
    0xda, 0x94, 0x60, 0x3e, 0x78, 0x32, 0x83, 0x3d, 0x92, 0x72,
    0x79, 0x3e, 0x71, 0x88, 0xab, 0x3e, 0xef, 0x83, 0x8e, 0x3e,
    0x78, 0x73, 0xb6, 0xbe, 0x3d, 0x77, 0x9b, 0xbe, 0xf0, 0xb3,
    0xf9, 0x3c, 0x27, 0x49, 0xc2, 0x3e, 0x49, 0x3b, 0xdc, 0xbe,
    0x2c, 0x5d, 0xac, 0x3d, 0x19, 0x19, 0x57, 0x3e, 0xa5, 0x94,
    0x54, 0x3e, 0x84, 0x1c, 0xec, 0xbd, 0xfe, 0x8b, 0x0d, 0x3e,
    0x40, 0x32, 0x6e, 0x3d, 0xd0, 0x51, 0xa7, 0x3c, 0x00, 0xe0,
    0x9e, 0xbb, 0xa7, 0x98, 0x21, 0x3e, 0xc5, 0x09, 0xab, 0x3e,
    0x93, 0xba, 0x15, 0xbf, 0x35, 0xfd, 0xdf, 0x3d, 0xcf, 0x6c,
    0x03, 0xbf, 0xc3, 0x0c, 0xa3, 0x3e, 0x48, 0x83, 0x8e, 0xbe,
    0xc1, 0x68, 0x9f, 0xbe, 0x45, 0x6e, 0xc0, 0xbe, 0x85, 0x4f,
    0x42, 0xbe, 0xe5, 0xc8, 0x9c, 0x3e, 0xba, 0xcf, 0x78, 0x3e,
    0x7c, 0x17, 0xe1, 0xbd, 0x90, 0x2a, 0x9c, 0xbe, 0x59, 0x47,
    0x9d, 0xbe, 0x61, 0x7f, 0x8f, 0x3e, 0xb8, 0xe7, 0x98, 0x3d,
    0x8c, 0x50, 0xb4, 0x3d, 0xd8, 0x23, 0xd5, 0xbe, 0x31, 0x78,
    0xdc, 0xbe, 0xfb, 0x47, 0xd0, 0x3e, 0x16, 0x3b, 0x9f, 0xbe,
    0xbd, 0x07, 0xd7, 0xbe, 0xfc, 0xff, 0x03, 0x3e, 0x90, 0x01,
    0x4d, 0x3d, 0x38, 0xf1, 0x4c, 0xbb, 0x80, 0xf4, 0x3e, 0x3e,
    0xfc, 0xe7, 0xe1, 0xbd, 0xd4, 0x55, 0xfa, 0x3d, 0x40, 0x21,
    0x84, 0xbc, 0x7e, 0x01, 0x29, 0x3e, 0xdc, 0xe6, 0xc4, 0x3d,
    0x19, 0xb9, 0xa8, 0x3d, 0x6c, 0x7f, 0xc5, 0xbd, 0xfd, 0xc7,
    0x9f, 0x3e, 0x67, 0x1e, 0x51, 0x3e, 0x0e, 0xa6, 0x25, 0x3e,
    0x76, 0x8d, 0xb3, 0xbe, 0x50, 0xda, 0x95, 0xbe, 0x20, 0x7e,
    0xa1, 0x3e, 0xc9, 0x9f, 0xae, 0xbe, 0x79, 0x31, 0x02, 0x3f,
    0x24, 0xfc, 0x32, 0xbc, 0x00, 0xba, 0xa6, 0xbd, 0xc3, 0x84,
    0xc3, 0xbe, 0x32, 0x33, 0x30, 0x3e, 0x29, 0x98, 0x98, 0x3e,
    0xb0, 0x14, 0xbc, 0xbd, 0x1e, 0xeb, 0x16, 0x3f, 0xde, 0xd2,
    0x31, 0x3e, 0xab, 0x17, 0x57, 0x3b, 0xb5, 0xc5, 0xd1, 0xbe,
    0x0c, 0xf4, 0x05, 0x3f, 0x83, 0x33, 0xb7, 0x3e, 0x68, 0xbc,
    0x88, 0xbe, 0xab, 0xfd, 0xc7, 0xbe, 0x4b, 0xd0, 0x8a, 0x3e,
    0x67, 0x30, 0xfc, 0xbe, 0x04, 0xcf, 0xb1, 0xbc, 0xce, 0x68,
    0x75, 0x3e, 0x5c, 0xdc, 0xbf, 0xbe, 0x2d, 0x97, 0xd5, 0x3e,
    0x14, 0xa7, 0x2e, 0xbe, 0x61, 0xeb, 0xd6, 0x3e, 0x81, 0x55,
    0x17, 0x3e, 0x88, 0x34, 0x86, 0xbd, 0xd3, 0x54, 0x37, 0x3e,
    0x3b, 0x14, 0xcc, 0x3e, 0x25, 0x93, 0x95, 0x3e, 0x74, 0x72,
    0xf4, 0xbd, 0xbd, 0x92, 0x96, 0x3e, 0xde, 0x0f, 0x29, 0x3f,
    0x66, 0xa4, 0xa4, 0xbe, 0xe7, 0xdc, 0xbc, 0xbc, 0x30, 0x80,
    0xaf, 0x3e, 0x56, 0x9e, 0x0e, 0x3e, 0x0e, 0x1b, 0xc1, 0xbe,
    0x44, 0x45, 0xaa, 0xbe, 0xc5, 0xc0, 0xa8, 0xbe, 0x0b, 0x1c,
    0x6a, 0xbe, 0x38, 0xb5, 0x9c, 0xbd, 0x79, 0xda, 0x7f, 0xbe,
    0x4e, 0x8c, 0xa3, 0x3e, 0x6f, 0x2f, 0x12, 0xbe, 0x80, 0xcf,
    0x59, 0xb7, 0x8f, 0x54, 0xda, 0x3e, 0x82, 0x1b, 0x1e, 0xbe,
    0x3d, 0x00, 0xcb, 0x3e, 0x81, 0xc5, 0x93, 0x3e, 0x39, 0xfa,
    0x5c, 0xbe, 0xde, 0x9e, 0x44, 0xbe, 0x00, 0x27, 0x4d, 0xbb,
    0xd6, 0x0a, 0x08, 0x3e, 0x6e, 0xb0, 0x4c, 0x3e, 0x35, 0x82,
    0xb6, 0x3e, 0xc7, 0x6d, 0xbc, 0x3e, 0x22, 0x33, 0x1c, 0x3e,
    0x6a, 0xfa, 0x9b, 0xbe, 0x08, 0x8d, 0x3d, 0x3d, 0x32, 0x30,
    0x09, 0xbe, 0x1e, 0x90, 0x7b, 0x3e, 0x00, 0x60, 0x6f, 0x3a,
    0x14, 0x1a, 0x87, 0xbd, 0x9d, 0xa7, 0xc7, 0x3d, 0x9e, 0xa4,
    0x2b, 0x3e, 0x00, 0xf8, 0x24, 0xbe, 0x32, 0x51, 0xc6, 0x3e,
    0xee, 0xc3, 0x14, 0xbe, 0xcc, 0x10, 0xbf, 0xbd, 0xfd, 0xce,
    0x63, 0xbe, 0x93, 0x48, 0x8f, 0x3e, 0xf0, 0xf6, 0x22, 0xbd,
    0x24, 0xf2, 0xf6, 0xbe, 0xe9, 0x96, 0xb3, 0x3e, 0xee, 0x39,
    0xcb, 0xbe, 0x82, 0x2b, 0x04, 0xbf, 0xb3, 0xec, 0xa7, 0x3e,
    0xd4, 0xca, 0x3b, 0xbe, 0x6a, 0x93, 0x09, 0xbe, 0x39, 0x81,
    0x93, 0xbe, 0x40, 0x61, 0x86, 0x3b, 0x0e, 0xc1, 0x9d, 0xbe,
    0x76, 0xa8, 0xf9, 0x3e, 0x50, 0x15, 0xd4, 0xbc, 0xc6, 0x15,
    0x1b, 0x3e, 0x6e, 0xa9, 0x76, 0x3e, 0x39, 0x78, 0xb1, 0x3e,
    0x0c, 0x4a, 0x8c, 0xbe, 0xce, 0x82, 0x5c, 0xbf, 0x22, 0x99,
    0x86, 0xbe, 0x85, 0x2d, 0x84, 0xbf, 0x62, 0x7f, 0x82, 0x3e,
    0x6b, 0xa0, 0x17, 0xbf, 0x54, 0xa2, 0x88, 0x3d, 0x44, 0x2b,
    0xb7, 0x3d, 0xe6, 0xe4, 0x83, 0xbe, 0x78, 0x77, 0xf3, 0xbd,
    0x16, 0x32, 0x20, 0x3e, 0x7a, 0x81, 0x15, 0xbe, 0x9f, 0xb4,
    0x91, 0x3e, 0x97, 0x3d, 0x93, 0x3e, 0x8d, 0x76, 0x8a, 0x3e,
    0x28, 0x55, 0x28, 0xbe, 0xa5, 0x6d, 0xb3, 0x3e, 0xd2, 0x33,
    0xdb, 0xbe, 0xd4, 0x6c, 0x0f, 0xbe, 0x22, 0xc5, 0x39, 0x3e,
    0x65, 0x3c, 0xa1, 0xbe, 0xdf, 0x77, 0xc1, 0x3e, 0xe5, 0x2b,
    0xbc, 0x3e, 0x28, 0x33, 0xe6, 0x3e, 0x07, 0x76, 0x9f, 0x3d,
    0x3d, 0x31, 0x4f, 0xbb, 0x03, 0x74, 0xcb, 0xbd, 0xca, 0x46,
    0xa0, 0x3d, 0x00, 0x00, 0x00, 0x00, 0xff, 0x07, 0x13, 0x3d,
    0xbf, 0xf8, 0xd5, 0xbd, 0xb9, 0x41, 0x79, 0xbe, 0x3f, 0x8b,
    0xfa, 0xbe, 0x88, 0x38, 0x86, 0x3d, 0x54, 0x0d, 0x87, 0xbe,
    0x2b, 0x5e, 0x4e, 0xbc, 0x87, 0x34, 0xf3, 0x3e, 0xb0, 0xe9,
    0x0e, 0x3f, 0x00, 0x00, 0x00, 0x00, 0xea, 0xdb, 0x88, 0xbf,
    0x6d, 0x79, 0x08, 0xbf, 0x00, 0xa5, 0x01, 0x3e, 0xd6, 0x4d,
    0x10, 0x3f, 0x34, 0xc0, 0xc9, 0xbe, 0x14, 0xcd, 0xeb,
    0x3e, 0xc0, 0x78, 0xa5, 0xbe, 0x98, 0xbb, 0xfe, 0x3c,
    0x70, 0xc7, 0x36, 0x3e, 0xa8, 0x5e, 0x72, 0x3f, 0x23,
    0x8c, 0xd9, 0xbe, 0xc5, 0xd8, 0x13, 0x3f, 0x60, 0x4f,
    0x01, 0x3f, 0x14, 0x55, 0x83, 0xbf, 0x7c, 0x6f, 0xd7,
    0x3f, 0x80, 0xad, 0xab, 0xbc, 0x77, 0xf6, 0x84, 0xbe
  };

  return AI_HANDLE_PTR(s_sine_model_weights);

}

